// ============================================================================
// PLANT HEALTH CLASSIFICATION MODEL
// TinyML Model for ESP32 Deployment
// Generated automatically - Do not edit manually
// ============================================================================

#ifndef PLANT_HEALTH_MODEL_H
#define PLANT_HEALTH_MODEL_H

// Model configuration
#define NUM_FEATURES 6
#define NUM_CLASSES 7

// Class labels
const char* CLASS_LABELS[NUM_CLASSES] = {
    "healthy",
    "nitrogen_deficiency",
    "ph_stress_acidic",
    "ph_stress_alkaline",
    "phosphorus_deficiency",
    "potassium_deficiency",
    "water_stress",
};

// Feature names (for reference)
// N, P, K, pH, soil_moisture, temperature

// Normalization parameters (StandardScaler)
const float FEATURE_MEANS[NUM_FEATURES] = {50.707554f, 51.891892f, 45.049896f, 6.467726f, 45.619543f, 25.445010f};
const float FEATURE_STDS[NUM_FEATURES] = {37.324601f, 31.497452f, 46.560942f, 0.790436f, 26.087041f, 5.796667f};

// Quantization parameters
const float INPUT_SCALE = 0.03180038556456566f;
const int8_t INPUT_ZERO_POINT = -11;
const float OUTPUT_SCALE = 0.00390625f;
const int8_t OUTPUT_ZERO_POINT = -128;

// Model data
const unsigned char MODEL_DATA[] PROGMEM = {
  0x20, 0x00, 0x00, 0x00, 0x54, 0x46, 0x4c, 0x33, 0x00, 0x00, 0x00, 0x00,
  0x14, 0x00, 0x20, 0x00, 0x1c, 0x00, 0x18, 0x00, 0x14, 0x00, 0x10, 0x00,
  0x0c, 0x00, 0x00, 0x00, 0x08, 0x00, 0x04, 0x00, 0x14, 0x00, 0x00, 0x00,
  0x1c, 0x00, 0x00, 0x00, 0x90, 0x00, 0x00, 0x00, 0x10, 0x01, 0x00, 0x00,
  0x88, 0x06, 0x00, 0x00, 0x98, 0x06, 0x00, 0x00, 0xa8, 0x15, 0x00, 0x00,
  0x03, 0x00, 0x00, 0x00, 0x01, 0x00, 0x00, 0x00, 0x10, 0x00, 0x00, 0x00,
  0x00, 0x00, 0x0a, 0x00, 0x10, 0x00, 0x0c, 0x00, 0x08, 0x00, 0x04, 0x00,
  0x0a, 0x00, 0x00, 0x00, 0x0c, 0x00, 0x00, 0x00, 0x1c, 0x00, 0x00, 0x00,
  0x3c, 0x00, 0x00, 0x00, 0x0f, 0x00, 0x00, 0x00, 0x73, 0x65, 0x72, 0x76,
  0x69, 0x6e, 0x67, 0x5f, 0x64, 0x65, 0x66, 0x61, 0x75, 0x6c, 0x74, 0x00,
  0x01, 0x00, 0x00, 0x00, 0x04, 0x00, 0x00, 0x00, 0x70, 0xff, 0xff, 0xff,
  0x0d, 0x00, 0x00, 0x00, 0x04, 0x00, 0x00, 0x00, 0x08, 0x00, 0x00, 0x00,
  0x6f, 0x75, 0x74, 0x70, 0x75, 0x74, 0x5f, 0x30, 0x00, 0x00, 0x00, 0x00,
  0x01, 0x00, 0x00, 0x00, 0x04, 0x00, 0x00, 0x00, 0x5a, 0xf9, 0xff, 0xff,
  0x04, 0x00, 0x00, 0x00, 0x05, 0x00, 0x00, 0x00, 0x69, 0x6e, 0x70, 0x75,
  0x74, 0x00, 0x00, 0x00, 0x03, 0x00, 0x00, 0x00, 0x5c, 0x00, 0x00, 0x00,
  0x2c, 0x00, 0x00, 0x00, 0x04, 0x00, 0x00, 0x00, 0xb8, 0xff, 0xff, 0xff,
  0x11, 0x00, 0x00, 0x00, 0x04, 0x00, 0x00, 0x00, 0x13, 0x00, 0x00, 0x00,
  0x43, 0x4f, 0x4e, 0x56, 0x45, 0x52, 0x53, 0x49, 0x4f, 0x4e, 0x5f, 0x4d,
  0x45, 0x54, 0x41, 0x44, 0x41, 0x54, 0x41, 0x00, 0xdc, 0xff, 0xff, 0xff,
  0x10, 0x00, 0x00, 0x00, 0x04, 0x00, 0x00, 0x00, 0x13, 0x00, 0x00, 0x00,
  0x6d, 0x69, 0x6e, 0x5f, 0x72, 0x75, 0x6e, 0x74, 0x69, 0x6d, 0x65, 0x5f,
  0x76, 0x65, 0x72, 0x73, 0x69, 0x6f, 0x6e, 0x00, 0x08, 0x00, 0x0c, 0x00,
  0x08, 0x00, 0x04, 0x00, 0x08, 0x00, 0x00, 0x00, 0x0f, 0x00, 0x00, 0x00,
  0x04, 0x00, 0x00, 0x00, 0x13, 0x00, 0x00, 0x00, 0x6d, 0x69, 0x6e, 0x5f,
  0x72, 0x75, 0x6e, 0x74, 0x69, 0x6d, 0x65, 0x5f, 0x76, 0x65, 0x72, 0x73,
  0x69, 0x6f, 0x6e, 0x00, 0x12, 0x00, 0x00, 0x00, 0x74, 0x05, 0x00, 0x00,
  0x6c, 0x05, 0x00, 0x00, 0x40, 0x05, 0x00, 0x00, 0xdc, 0x04, 0x00, 0x00,
  0x9c, 0x04, 0x00, 0x00, 0xcc, 0x03, 0x00, 0x00, 0x7c, 0x03, 0x00, 0x00,
  0xec, 0x01, 0x00, 0x00, 0x7c, 0x01, 0x00, 0x00, 0xdc, 0x00, 0x00, 0x00,
  0xd4, 0x00, 0x00, 0x00, 0xcc, 0x00, 0x00, 0x00, 0xc4, 0x00, 0x00, 0x00,
  0xbc, 0x00, 0x00, 0x00, 0xb4, 0x00, 0x00, 0x00, 0x94, 0x00, 0x00, 0x00,
  0x74, 0x00, 0x00, 0x00, 0x04, 0x00, 0x00, 0x00, 0x3e, 0xfa, 0xff, 0xff,
  0x04, 0x00, 0x00, 0x00, 0x60, 0x00, 0x00, 0x00, 0x0c, 0x00, 0x00, 0x00,
  0x08, 0x00, 0x0e, 0x00, 0x08, 0x00, 0x04, 0x00, 0x08, 0x00, 0x00, 0x00,
  0x10, 0x00, 0x00, 0x00, 0x28, 0x00, 0x00, 0x00, 0x00, 0x00, 0x06, 0x00,
  0x08, 0x00, 0x04, 0x00, 0x06, 0x00, 0x00, 0x00, 0x04, 0x00, 0x00, 0x00,
  0x01, 0x00, 0x00, 0x00, 0xeb, 0x03, 0x00, 0x00, 0x0c, 0x00, 0x18, 0x00,
  0x14, 0x00, 0x10, 0x00, 0x0c, 0x00, 0x04, 0x00, 0x0c, 0x00, 0x00, 0x00,
  0x73, 0x77, 0x0a, 0x0e, 0x2d, 0x2b, 0x3a, 0x65, 0x02, 0x00, 0x00, 0x00,
  0x02, 0x00, 0x00, 0x00, 0x04, 0x00, 0x00, 0x00, 0x06, 0x00, 0x00, 0x00,
  0x32, 0x2e, 0x31, 0x39, 0x2e, 0x30, 0x00, 0x00, 0xaa, 0xfa, 0xff, 0xff,
  0x04, 0x00, 0x00, 0x00, 0x10, 0x00, 0x00, 0x00, 0x00, 0x00, 0x00, 0x00,
  0x00, 0x00, 0x00, 0x00, 0x00, 0x00, 0x00, 0x00, 0x00, 0x00, 0x00, 0x00,
  0xc6, 0xfa, 0xff, 0xff, 0x04, 0x00, 0x00, 0x00, 0x10, 0x00, 0x00, 0x00,
  0x31, 0x2e, 0x31, 0x34, 0x2e, 0x30, 0x00, 0x00, 0x00, 0x00, 0x00, 0x00,
  0x00, 0x00, 0x00, 0x00, 0xb0, 0xfa, 0xff, 0xff, 0xb4, 0xfa, 0xff, 0xff,
  0xb8, 0xfa, 0xff, 0xff, 0xbc, 0xfa, 0xff, 0xff, 0xc0, 0xfa, 0xff, 0xff,
  0xf6, 0xfa, 0xff, 0xff, 0x04, 0x00, 0x00, 0x00, 0x90, 0x00, 0x00, 0x00,
  0x20, 0x33, 0xf1, 0x7f, 0x90, 0x08, 0xfa, 0x81, 0x1b, 0xcc, 0xf4, 0x1a,
  0x00, 0x00, 0x81, 0x00, 0xff, 0x00, 0x16, 0x7f, 0x99, 0xb4, 0x13, 0x01,
  0x0a, 0x2f, 0x81, 0x49, 0x1a, 0x16, 0x81, 0xfe, 0x01, 0x00, 0x00, 0x00,
  0x0c, 0x11, 0x0c, 0x7f, 0x05, 0xfb, 0x81, 0xff, 0x03, 0x00, 0x02, 0x01,
  0x05, 0xfc, 0x06, 0x81, 0x03, 0x01, 0xda, 0x43, 0xc3, 0x17, 0x81, 0x01,
  0xff, 0x81, 0xfc, 0x00, 0xff, 0x01, 0x00, 0xff, 0x81, 0x00, 0x00, 0xff,
  0xe1, 0x81, 0x36, 0x3e, 0x0d, 0x00, 0x02, 0x00, 0xff, 0x00, 0x81, 0xfa,
  0x2a, 0x7b, 0xf8, 0xbd, 0x81, 0x15, 0x05, 0xfe, 0x04, 0x81, 0x03, 0x01,
  0x81, 0x00, 0x02, 0xff, 0xff, 0xff, 0x04, 0x00, 0x02, 0xfb, 0x81, 0xfb,
  0x23, 0xaa, 0x44, 0xa2, 0x81, 0xdc, 0x81, 0x01, 0x01, 0x02, 0xff, 0xfc,
  0x01, 0x81, 0xfa, 0x00, 0xff, 0x00, 0xe8, 0x8b, 0x7f, 0x74, 0x1a, 0x16,
  0xce, 0x18, 0xe9, 0x81, 0x09, 0xf5, 0x06, 0x04, 0x0e, 0x7f, 0x03, 0xfc,
  0x92, 0xfb, 0xff, 0xff, 0x04, 0x00, 0x00, 0x00, 0x60, 0x00, 0x00, 0x00,
  0xa8, 0x07, 0x00, 0x00, 0xb0, 0x0d, 0x00, 0x00, 0x83, 0xf7, 0xff, 0xff,
  0x39, 0x0f, 0x00, 0x00, 0x7c, 0x01, 0x00, 0x00, 0x84, 0xf2, 0xff, 0xff,
  0x90, 0xef, 0xff, 0xff, 0xc9, 0xf2, 0xff, 0xff, 0x9b, 0xf0, 0xff, 0xff,
  0x06, 0xf3, 0xff, 0xff, 0xa9, 0xf2, 0xff, 0xff, 0x4b, 0xf7, 0xff, 0xff,
  0xa1, 0xfd, 0xff, 0xff, 0xe9, 0xee, 0xff, 0xff, 0x0d, 0xf8, 0xff, 0xff,
  0x83, 0xf0, 0xff, 0xff, 0x66, 0xf2, 0xff, 0xff, 0x64, 0xee, 0xff, 0xff,
  0x27, 0xfd, 0xff, 0xff, 0x19, 0xf3, 0xff, 0xff, 0xa3, 0xf2, 0xff, 0xff,
  0x24, 0xfc, 0xff, 0xff, 0xc5, 0xfe, 0xff, 0xff, 0x9a, 0xee, 0xff, 0xff,
  0xfe, 0xfb, 0xff, 0xff, 0x04, 0x00, 0x00, 0x00, 0x80, 0x01, 0x00, 0x00,
  0x00, 0x00, 0x3c, 0x05, 0x01, 0x81, 0x05, 0xb7, 0x03, 0xff, 0xa5, 0x21,
  0xf8, 0x08, 0x01, 0x06, 0xbd, 0x0b, 0x01, 0xe3, 0xb3, 0xf9, 0x01, 0x03,
  0x01, 0xff, 0xb1, 0xfd, 0x00, 0xd9, 0x00, 0xe7, 0xe1, 0x00, 0xd5, 0x81,
  0xff, 0x02, 0x00, 0xe4, 0xeb, 0x03, 0xff, 0xf4, 0xbd, 0xff, 0xff, 0x01,
  0x09, 0xfb, 0x9f, 0xf5, 0x03, 0xb6, 0x1d, 0xa6, 0xea, 0x08, 0xa4, 0x81,
  0x08, 0x30, 0x04, 0xee, 0xb2, 0x45, 0x05, 0xc8, 0xbd, 0x05, 0xfe, 0x18,
  0x04, 0x05, 0xb2, 0xfa, 0xfa, 0x18, 0xef, 0x12, 0xce, 0x0a, 0xd6, 0x81,
  0xf3, 0x37, 0x04, 0xb8, 0x0f, 0x38, 0x04, 0xee, 0xea, 0xf8, 0x00, 0xd8,
  0x00, 0xff, 0xb8, 0x00, 0x00, 0xf6, 0x01, 0xf7, 0x02, 0xff, 0xd4, 0x81,
  0x00, 0xfd, 0x00, 0x00, 0xf9, 0xff, 0x00, 0xfb, 0xc4, 0x00, 0x00, 0x01,
  0x06, 0xf6, 0xdc, 0xed, 0x04, 0x7b, 0x27, 0x64, 0x09, 0x00, 0xf5, 0xb1,
  0x06, 0xeb, 0xfd, 0x17, 0x7f, 0xf4, 0xf7, 0x3b, 0x0c, 0x0f, 0x01, 0x22,
  0x01, 0xfc, 0xf3, 0x0c, 0x01, 0x6b, 0xfb, 0x7f, 0x02, 0x01, 0x2c, 0xdd,
  0x00, 0x16, 0xfb, 0x05, 0x6c, 0x16, 0xff, 0x3d, 0x04, 0x00, 0x00, 0xf9,
  0x00, 0x00, 0xa8, 0xfe, 0xfe, 0x05, 0xe1, 0x06, 0xba, 0xfe, 0x01, 0x81,
  0xfd, 0x02, 0x00, 0xc2, 0x09, 0x01, 0x00, 0xfd, 0xff, 0xfc, 0xfd, 0xca,
  0x01, 0xfe, 0x32, 0xfe, 0x03, 0x94, 0x05, 0xc6, 0xab, 0xfb, 0xaa, 0x0e,
  0xfb, 0xd2, 0xfd, 0xbe, 0xba, 0xc5, 0xfb, 0xd5, 0x81, 0xff, 0xfd, 0x13,
  0xfc, 0xfb, 0x2f, 0xfa, 0xff, 0x6b, 0x0d, 0x7f, 0x01, 0x0c, 0x06, 0x22,
  0x02, 0xe6, 0x06, 0x02, 0x7f, 0xe5, 0x02, 0x5b, 0x1c, 0x00, 0x05, 0x12,
  0xfe, 0x00, 0xfe, 0xfe, 0xff, 0x81, 0xf0, 0xb0, 0x03, 0xf8, 0x0c, 0x03,
  0x01, 0xf3, 0x00, 0x05, 0xa3, 0xf7, 0x00, 0xde, 0x10, 0x01, 0x00, 0xe3,
  0xfd, 0x0b, 0x21, 0xe4, 0xfe, 0xf0, 0xf2, 0xed, 0x00, 0xf3, 0x59, 0x6a,
  0x0b, 0x0d, 0xf6, 0x03, 0xca, 0x0c, 0x04, 0xfc, 0x7f, 0x07, 0x01, 0xf1,
  0x00, 0xfc, 0x00, 0x02, 0x01, 0xa3, 0x03, 0xba, 0x92, 0x03, 0xae, 0x01,
  0xfc, 0xfb, 0xfd, 0x97, 0xaf, 0xf4, 0x00, 0xed, 0x81, 0x01, 0xfd, 0xff,
  0x00, 0x01, 0x4c, 0x01, 0x01, 0xe8, 0xfb, 0xe3, 0x03, 0x07, 0xb8, 0x4c,
  0xfd, 0x0c, 0x00, 0x02, 0xd0, 0x15, 0x02, 0xfe, 0x81, 0xfa, 0x00, 0xf8,
  0x00, 0x00, 0xc6, 0x01, 0xfe, 0xd4, 0xf5, 0xe6, 0x01, 0x00, 0x00, 0x81,
  0xff, 0x03, 0x00, 0x01, 0xdd, 0x04, 0x00, 0xfa, 0xff, 0xff, 0x00, 0xea,
  0x03, 0x03, 0xe7, 0xf5, 0x01, 0x81, 0x07, 0xa0, 0x05, 0x06, 0x21, 0xcd,
  0x07, 0x0a, 0xfe, 0x02, 0x98, 0x14, 0x03, 0xe4, 0x3d, 0x08, 0xff, 0x0a,
  0x8a, 0xfd, 0xff, 0xff, 0x04, 0x00, 0x00, 0x00, 0x40, 0x00, 0x00, 0x00,
  0xbf, 0x01, 0x00, 0x00, 0xc9, 0x02, 0x00, 0x00, 0xbe, 0xff, 0xff, 0xff,
  0x06, 0xfe, 0xff, 0xff, 0x14, 0x02, 0x00, 0x00, 0x28, 0x01, 0x00, 0x00,
  0x3c, 0xfe, 0xff, 0xff, 0x52, 0x03, 0x00, 0x00, 0x9b, 0x05, 0x00, 0x00,
  0xee, 0xfe, 0xff, 0xff, 0x29, 0x03, 0x00, 0x00, 0x91, 0xfe, 0xff, 0xff,
  0x14, 0x06, 0x00, 0x00, 0xb7, 0x01, 0x00, 0x00, 0xb4, 0x01, 0x00, 0x00,
  0x9a, 0x01, 0x00, 0x00, 0xd6, 0xfd, 0xff, 0xff, 0x04, 0x00, 0x00, 0x00,
  0xc0, 0x00, 0x00, 0x00, 0x33, 0xe0, 0xba, 0xb6, 0x7f, 0xd4, 0xf5, 0x01,
  0x13, 0xee, 0x2e, 0xbf, 0x03, 0xff, 0x2a, 0x9a, 0x21, 0x81, 0xd8, 0xc8,
  0xd2, 0xdb, 0xef, 0xd0, 0x05, 0xed, 0x57, 0x0b, 0xec, 0x13, 0xf9, 0xfe,
  0xd2, 0x0e, 0xf8, 0xb4, 0x7f, 0xff, 0xeb, 0xb2, 0x05, 0xda, 0x55, 0xfe,
  0xe5, 0x9e, 0x2e, 0x20, 0xc6, 0x31, 0xcd, 0xcc, 0x5a, 0x15, 0x1a, 0x7f,
  0x05, 0x13, 0xdc, 0x07, 0x0e, 0xd0, 0xbc, 0xd1, 0x4a, 0x81, 0x11, 0x2e,
  0xf5, 0x1b, 0x20, 0xa5, 0xdf, 0x05, 0xec, 0xa1, 0xc5, 0x2a, 0x36, 0xce,
  0xec, 0x0b, 0xfb, 0x19, 0xda, 0xe8, 0xf6, 0x7f, 0xef, 0xf4, 0x11, 0x0e,
  0xfa, 0xe9, 0x43, 0x18, 0x07, 0xf8, 0x08, 0xdb, 0xd8, 0x2e, 0x13, 0xb0,
  0x18, 0x0c, 0xcd, 0xfd, 0x12, 0xf8, 0x81, 0x08, 0x16, 0x08, 0x12, 0x01,
  0xa2, 0x09, 0xee, 0xa9, 0x2e, 0xef, 0xfc, 0xf1, 0x34, 0x08, 0x81, 0x11,
  0x07, 0x7f, 0x15, 0x0c, 0x6a, 0x04, 0xef, 0xd4, 0xdc, 0xea, 0xcf, 0xe0,
  0x08, 0xfe, 0x1a, 0x1e, 0x18, 0x2b, 0xf9, 0x06, 0xb7, 0xd4, 0xed, 0x7f,
  0x01, 0xf2, 0xfc, 0xd9, 0x42, 0x27, 0xf7, 0xe6, 0xea, 0xb7, 0xf1, 0xfc,
  0x81, 0x06, 0x10, 0x2d, 0x0b, 0x0d, 0xfe, 0x20, 0xf7, 0x00, 0xc3, 0x0a,
  0xef, 0x26, 0xf8, 0xa8, 0xfa, 0x0d, 0xe8, 0x1a, 0x6c, 0xf0, 0x17, 0xf1,
  0x7f, 0xdd, 0x99, 0x00, 0xa2, 0xfe, 0xff, 0xff, 0x04, 0x00, 0x00, 0x00,
  0x30, 0x00, 0x00, 0x00, 0xee, 0x01, 0x00, 0x00, 0xbc, 0x0a, 0x00, 0x00,
  0x52, 0x04, 0x00, 0x00, 0xea, 0x04, 0x00, 0x00, 0xc6, 0x0d, 0x00, 0x00,
  0x60, 0xfd, 0xff, 0xff, 0xbb, 0x0a, 0x00, 0x00, 0x7a, 0x06, 0x00, 0x00,
  0x34, 0xf8, 0xff, 0xff, 0xc3, 0xfd, 0xff, 0xff, 0xcf, 0x0c, 0x00, 0x00,
  0x1b, 0xfc, 0xff, 0xff, 0xde, 0xfe, 0xff, 0xff, 0x04, 0x00, 0x00, 0x00,
  0x54, 0x00, 0x00, 0x00, 0x36, 0xda, 0x54, 0x2f, 0x81, 0x5c, 0xb1, 0xd6,
  0xde, 0x42, 0xa1, 0x25, 0xe1, 0xdc, 0xcb, 0x5d, 0x4d, 0x2d, 0x4d, 0xb7,
  0x81, 0x87, 0x33, 0xb0, 0x35, 0x19, 0x2f, 0xc2, 0x3e, 0x01, 0xa4, 0x81,
  0xee, 0xc0, 0xa3, 0xb8, 0x9e, 0x81, 0x3b, 0xf8, 0xd5, 0xde, 0x2e, 0x31,
  0x25, 0xd3, 0xc4, 0x20, 0x81, 0x28, 0x43, 0xe1, 0xb2, 0x63, 0xf5, 0xf8,
  0xb7, 0xbf, 0x26, 0xde, 0x1e, 0x30, 0xa8, 0x81, 0x4d, 0xe2, 0x40, 0x5d,
  0x90, 0x3f, 0x0e, 0x27, 0x84, 0x82, 0x9d, 0x81, 0x2c, 0x65, 0x8d, 0xcb,
  0x36, 0x58, 0xa5, 0x96, 0x3e, 0xff, 0xff, 0xff, 0x04, 0x00, 0x00, 0x00,
  0x1c, 0x00, 0x00, 0x00, 0x4d, 0x06, 0x00, 0x00, 0x4d, 0xfc, 0xff, 0xff,
  0x8b, 0x04, 0x00, 0x00, 0x16, 0xfc, 0xff, 0xff, 0x2a, 0xfe, 0xff, 0xff,
  0x7f, 0xf7, 0xff, 0xff, 0x71, 0x0b, 0x00, 0x00, 0x34, 0xff, 0xff, 0xff,
  0x38, 0xff, 0xff, 0xff, 0x0f, 0x00, 0x00, 0x00, 0x4d, 0x4c, 0x49, 0x52,
  0x20, 0x43, 0x6f, 0x6e, 0x76, 0x65, 0x72, 0x74, 0x65, 0x64, 0x2e, 0x00,
  0x01, 0x00, 0x00, 0x00, 0x14, 0x00, 0x00, 0x00, 0x00, 0x00, 0x0e, 0x00,
  0x18, 0x00, 0x14, 0x00, 0x10, 0x00, 0x0c, 0x00, 0x08, 0x00, 0x04, 0x00,
  0x0e, 0x00, 0x00, 0x00, 0x14, 0x00, 0x00, 0x00, 0x1c, 0x00, 0x00, 0x00,
  0x60, 0x01, 0x00, 0x00, 0x64, 0x01, 0x00, 0x00, 0x68, 0x01, 0x00, 0x00,
  0x04, 0x00, 0x00, 0x00, 0x6d, 0x61, 0x69, 0x6e, 0x00, 0x00, 0x00, 0x00,
  0x05, 0x00, 0x00, 0x00, 0x08, 0x01, 0x00, 0x00, 0xc0, 0x00, 0x00, 0x00,
  0x88, 0x00, 0x00, 0x00, 0x50, 0x00, 0x00, 0x00, 0x14, 0x00, 0x00, 0x00,
  0x00, 0x00, 0x0e, 0x00, 0x1a, 0x00, 0x14, 0x00, 0x10, 0x00, 0x0c, 0x00,
  0x0b, 0x00, 0x04, 0x00, 0x0e, 0x00, 0x00, 0x00, 0x1c, 0x00, 0x00, 0x00,
  0x00, 0x00, 0x00, 0x09, 0x1c, 0x00, 0x00, 0x00, 0x20, 0x00, 0x00, 0x00,
  0x01, 0x00, 0x00, 0x00, 0x00, 0x00, 0x06, 0x00, 0x08, 0x00, 0x04, 0x00,
  0x06, 0x00, 0x00, 0x00, 0x00, 0x00, 0x80, 0x3f, 0x01, 0x00, 0x00, 0x00,
  0x0d, 0x00, 0x00, 0x00, 0x01, 0x00, 0x00, 0x00, 0x0c, 0x00, 0x00, 0x00,
  0x62, 0xff, 0xff, 0xff, 0x14, 0x00, 0x00, 0x00, 0x00, 0x00, 0x00, 0x08,
  0x10, 0x00, 0x00, 0x00, 0x14, 0x00, 0x00, 0x00, 0x04, 0x00, 0x04, 0x00,
  0x04, 0x00, 0x00, 0x00, 0x01, 0x00, 0x00, 0x00, 0x0c, 0x00, 0x00, 0x00,
  0x03, 0x00, 0x00, 0x00, 0x0b, 0x00, 0x00, 0x00, 0x02, 0x00, 0x00, 0x00,
  0x01, 0x00, 0x00, 0x00, 0x96, 0xff, 0xff, 0xff, 0x10, 0x00, 0x00, 0x00,
  0x00, 0x00, 0x00, 0x08, 0x10, 0x00, 0x00, 0x00, 0x14, 0x00, 0x00, 0x00,
  0x86, 0xff, 0xff, 0xff, 0x00, 0x00, 0x00, 0x01, 0x01, 0x00, 0x00, 0x00,
  0x0b, 0x00, 0x00, 0x00, 0x03, 0x00, 0x00, 0x00, 0x0a, 0x00, 0x00, 0x00,
  0x04, 0x00, 0x00, 0x00, 0x03, 0x00, 0x00, 0x00, 0xca, 0xff, 0xff, 0xff,
  0x10, 0x00, 0x00, 0x00, 0x00, 0x00, 0x00, 0x08, 0x10, 0x00, 0x00, 0x00,
  0x14, 0x00, 0x00, 0x00, 0xba, 0xff, 0xff, 0xff, 0x00, 0x00, 0x00, 0x01,
  0x01, 0x00, 0x00, 0x00, 0x0a, 0x00, 0x00, 0x00, 0x03, 0x00, 0x00, 0x00,
  0x09, 0x00, 0x00, 0x00, 0x06, 0x00, 0x00, 0x00, 0x05, 0x00, 0x00, 0x00,
  0x00, 0x00, 0x0e, 0x00, 0x16, 0x00, 0x00, 0x00, 0x10, 0x00, 0x0c, 0x00,
  0x0b, 0x00, 0x04, 0x00, 0x0e, 0x00, 0x00, 0x00, 0x18, 0x00, 0x00, 0x00,
  0x00, 0x00, 0x00, 0x08, 0x18, 0x00, 0x00, 0x00, 0x1c, 0x00, 0x00, 0x00,
  0x00, 0x00, 0x06, 0x00, 0x08, 0x00, 0x07, 0x00, 0x06, 0x00, 0x00, 0x00,
  0x00, 0x00, 0x00, 0x01, 0x01, 0x00, 0x00, 0x00, 0x09, 0x00, 0x00, 0x00,
  0x03, 0x00, 0x00, 0x00, 0x00, 0x00, 0x00, 0x00, 0x08, 0x00, 0x00, 0x00,
  0x07, 0x00, 0x00, 0x00, 0x01, 0x00, 0x00, 0x00, 0x0d, 0x00, 0x00, 0x00,
  0x01, 0x00, 0x00, 0x00, 0x00, 0x00, 0x00, 0x00, 0x0e, 0x00, 0x00, 0x00,
  0xfc, 0x0c, 0x00, 0x00, 0x3c, 0x0c, 0x00, 0x00, 0x78, 0x0b, 0x00, 0x00,
  0x94, 0x0a, 0x00, 0x00, 0xa8, 0x09, 0x00, 0x00, 0x94, 0x08, 0x00, 0x00,
  0x78, 0x07, 0x00, 0x00, 0x04, 0x06, 0x00, 0x00, 0x88, 0x04, 0x00, 0x00,
  0xac, 0x03, 0x00, 0x00, 0x70, 0x02, 0x00, 0x00, 0x34, 0x01, 0x00, 0x00,
  0x80, 0x00, 0x00, 0x00, 0x04, 0x00, 0x00, 0x00, 0x52, 0xf3, 0xff, 0xff,
  0x00, 0x00, 0x00, 0x01, 0x18, 0x00, 0x00, 0x00, 0x20, 0x00, 0x00, 0x00,
  0x3c, 0x00, 0x00, 0x00, 0x0e, 0x00, 0x00, 0x00, 0x00, 0x00, 0x00, 0x09,
  0x50, 0x00, 0x00, 0x00, 0x02, 0x00, 0x00, 0x00, 0xff, 0xff, 0xff, 0xff,
  0x07, 0x00, 0x00, 0x00, 0x3c, 0xf3, 0xff, 0xff, 0x08, 0x00, 0x00, 0x00,
  0x10, 0x00, 0x00, 0x00, 0x01, 0x00, 0x00, 0x00, 0x80, 0xff, 0xff, 0xff,
  0xff, 0xff, 0xff, 0xff, 0x01, 0x00, 0x00, 0x00, 0x00, 0x00, 0x80, 0x3b,
  0x1b, 0x00, 0x00, 0x00, 0x53, 0x74, 0x61, 0x74, 0x65, 0x66, 0x75, 0x6c,
  0x50, 0x61, 0x72, 0x74, 0x69, 0x74, 0x69, 0x6f, 0x6e, 0x65, 0x64, 0x43,
  0x61, 0x6c, 0x6c, 0x5f, 0x31, 0x3a, 0x30, 0x00, 0x02, 0x00, 0x00, 0x00,
  0x01, 0x00, 0x00, 0x00, 0x07, 0x00, 0x00, 0x00, 0xca, 0xf3, 0xff, 0xff,
  0x00, 0x00, 0x00, 0x01, 0x18, 0x00, 0x00, 0x00, 0x20, 0x00, 0x00, 0x00,
  0x3c, 0x00, 0x00, 0x00, 0x0d, 0x00, 0x00, 0x00, 0x00, 0x00, 0x00, 0x09,
  0x88, 0x00, 0x00, 0x00, 0x02, 0x00, 0x00, 0x00, 0xff, 0xff, 0xff, 0xff,
  0x07, 0x00, 0x00, 0x00, 0xb4, 0xf3, 0xff, 0xff, 0x08, 0x00, 0x00, 0x00,
  0x10, 0x00, 0x00, 0x00, 0x01, 0x00, 0x00, 0x00, 0x1b, 0x00, 0x00, 0x00,
  0x00, 0x00, 0x00, 0x00, 0x01, 0x00, 0x00, 0x00, 0x47, 0x23, 0x27, 0x3e,
  0x50, 0x00, 0x00, 0x00, 0x50, 0x6c, 0x61, 0x6e, 0x74, 0x48, 0x65, 0x61,
  0x6c, 0x74, 0x68, 0x43, 0x6c, 0x61, 0x73, 0x73, 0x69, 0x66, 0x69, 0x65,
  0x72, 0x5f, 0x31, 0x2f, 0x6f, 0x75, 0x74, 0x70, 0x75, 0x74, 0x5f, 0x31,
  0x2f, 0x4d, 0x61, 0x74, 0x4d, 0x75, 0x6c, 0x3b, 0x50, 0x6c, 0x61, 0x6e,
  0x74, 0x48, 0x65, 0x61, 0x6c, 0x74, 0x68, 0x43, 0x6c, 0x61, 0x73, 0x73,
  0x69, 0x66, 0x69, 0x65, 0x72, 0x5f, 0x31, 0x2f, 0x6f, 0x75, 0x74, 0x70,
  0x75, 0x74, 0x5f, 0x31, 0x2f, 0x42, 0x69, 0x61, 0x73, 0x41, 0x64, 0x64,
  0x00, 0x00, 0x00, 0x00, 0x02, 0x00, 0x00, 0x00, 0x01, 0x00, 0x00, 0x00,
  0x07, 0x00, 0x00, 0x00, 0x7a, 0xf4, 0xff, 0xff, 0x00, 0x00, 0x00, 0x01,
  0x18, 0x00, 0x00, 0x00, 0x20, 0x00, 0x00, 0x00, 0x40, 0x00, 0x00, 0x00,
  0x0c, 0x00, 0x00, 0x00, 0x00, 0x00, 0x00, 0x09, 0x10, 0x01, 0x00, 0x00,
  0x02, 0x00, 0x00, 0x00, 0xff, 0xff, 0xff, 0xff, 0x0c, 0x00, 0x00, 0x00,
  0x64, 0xf4, 0xff, 0xff, 0x08, 0x00, 0x00, 0x00, 0x14, 0x00, 0x00, 0x00,
  0x01, 0x00, 0x00, 0x00, 0x80, 0xff, 0xff, 0xff, 0xff, 0xff, 0xff, 0xff,
  0x00, 0x00, 0x00, 0x00, 0x01, 0x00, 0x00, 0x00, 0xee, 0x9e, 0x5c, 0x3d,
  0xd7, 0x00, 0x00, 0x00, 0x50, 0x6c, 0x61, 0x6e, 0x74, 0x48, 0x65, 0x61,
  0x6c, 0x74, 0x68, 0x43, 0x6c, 0x61, 0x73, 0x73, 0x69, 0x66, 0x69, 0x65,
  0x72, 0x5f, 0x31, 0x2f, 0x62, 0x6e, 0x5f, 0x32, 0x5f, 0x31, 0x2f, 0x62,
  0x61, 0x74, 0x63, 0x68, 0x6e, 0x6f, 0x72, 0x6d, 0x2f, 0x6d, 0x75, 0x6c,
  0x5f, 0x31, 0x3b, 0x50, 0x6c, 0x61, 0x6e, 0x74, 0x48, 0x65, 0x61, 0x6c,
  0x74, 0x68, 0x43, 0x6c, 0x61, 0x73, 0x73, 0x69, 0x66, 0x69, 0x65, 0x72,
  0x5f, 0x31, 0x2f, 0x62, 0x6e, 0x5f, 0x32, 0x5f, 0x31, 0x2f, 0x62, 0x61,
  0x74, 0x63, 0x68, 0x6e, 0x6f, 0x72, 0x6d, 0x2f, 0x61, 0x64, 0x64, 0x5f,
  0x31, 0x3b, 0x50, 0x6c, 0x61, 0x6e, 0x74, 0x48, 0x65, 0x61, 0x6c, 0x74,
  0x68, 0x43, 0x6c, 0x61, 0x73, 0x73, 0x69, 0x66, 0x69, 0x65, 0x72, 0x5f,
  0x31, 0x2f, 0x64, 0x65, 0x6e, 0x73, 0x65, 0x5f, 0x33, 0x5f, 0x31, 0x2f,
  0x4d, 0x61, 0x74, 0x4d, 0x75, 0x6c, 0x3b, 0x50, 0x6c, 0x61, 0x6e, 0x74,
  0x48, 0x65, 0x61, 0x6c, 0x74, 0x68, 0x43, 0x6c, 0x61, 0x73, 0x73, 0x69,
  0x66, 0x69, 0x65, 0x72, 0x5f, 0x31, 0x2f, 0x64, 0x65, 0x6e, 0x73, 0x65,
  0x5f, 0x33, 0x5f, 0x31, 0x2f, 0x52, 0x65, 0x6c, 0x75, 0x3b, 0x50, 0x6c,
  0x61, 0x6e, 0x74, 0x48, 0x65, 0x61, 0x6c, 0x74, 0x68, 0x43, 0x6c, 0x61,
  0x73, 0x73, 0x69, 0x66, 0x69, 0x65, 0x72, 0x5f, 0x31, 0x2f, 0x64, 0x65,
  0x6e, 0x73, 0x65, 0x5f, 0x33, 0x5f, 0x31, 0x2f, 0x42, 0x69, 0x61, 0x73,
  0x41, 0x64, 0x64, 0x00, 0x02, 0x00, 0x00, 0x00, 0x01, 0x00, 0x00, 0x00,
  0x0c, 0x00, 0x00, 0x00, 0xb2, 0xf5, 0xff, 0xff, 0x00, 0x00, 0x00, 0x01,
  0x18, 0x00, 0x00, 0x00, 0x20, 0x00, 0x00, 0x00, 0x40, 0x00, 0x00, 0x00,
  0x0b, 0x00, 0x00, 0x00, 0x00, 0x00, 0x00, 0x09, 0x10, 0x01, 0x00, 0x00,
  0x02, 0x00, 0x00, 0x00, 0xff, 0xff, 0xff, 0xff, 0x10, 0x00, 0x00, 0x00,
  0x9c, 0xf5, 0xff, 0xff, 0x08, 0x00, 0x00, 0x00, 0x14, 0x00, 0x00, 0x00,
  0x01, 0x00, 0x00, 0x00, 0x80, 0xff, 0xff, 0xff, 0xff, 0xff, 0xff, 0xff,
  0x00, 0x00, 0x00, 0x00, 0x01, 0x00, 0x00, 0x00, 0x38, 0x19, 0x37, 0x3d,
  0xd7, 0x00, 0x00, 0x00, 0x50, 0x6c, 0x61, 0x6e, 0x74, 0x48, 0x65, 0x61,
  0x6c, 0x74, 0x68, 0x43, 0x6c, 0x61, 0x73, 0x73, 0x69, 0x66, 0x69, 0x65,
  0x72, 0x5f, 0x31, 0x2f, 0x62, 0x6e, 0x5f, 0x31, 0x5f, 0x31, 0x2f, 0x62,
  0x61, 0x74, 0x63, 0x68, 0x6e, 0x6f, 0x72, 0x6d, 0x2f, 0x6d, 0x75, 0x6c,
  0x5f, 0x31, 0x3b, 0x50, 0x6c, 0x61, 0x6e, 0x74, 0x48, 0x65, 0x61, 0x6c,
  0x74, 0x68, 0x43, 0x6c, 0x61, 0x73, 0x73, 0x69, 0x66, 0x69, 0x65, 0x72,
  0x5f, 0x31, 0x2f, 0x62, 0x6e, 0x5f, 0x31, 0x5f, 0x31, 0x2f, 0x62, 0x61,
  0x74, 0x63, 0x68, 0x6e, 0x6f, 0x72, 0x6d, 0x2f, 0x61, 0x64, 0x64, 0x5f,
  0x31, 0x3b, 0x50, 0x6c, 0x61, 0x6e, 0x74, 0x48, 0x65, 0x61, 0x6c, 0x74,
  0x68, 0x43, 0x6c, 0x61, 0x73, 0x73, 0x69, 0x66, 0x69, 0x65, 0x72, 0x5f,
  0x31, 0x2f, 0x64, 0x65, 0x6e, 0x73, 0x65, 0x5f, 0x32, 0x5f, 0x31, 0x2f,
  0x4d, 0x61, 0x74, 0x4d, 0x75, 0x6c, 0x3b, 0x50, 0x6c, 0x61, 0x6e, 0x74,
  0x48, 0x65, 0x61, 0x6c, 0x74, 0x68, 0x43, 0x6c, 0x61, 0x73, 0x73, 0x69,
  0x66, 0x69, 0x65, 0x72, 0x5f, 0x31, 0x2f, 0x64, 0x65, 0x6e, 0x73, 0x65,
  0x5f, 0x32, 0x5f, 0x31, 0x2f, 0x52, 0x65, 0x6c, 0x75, 0x3b, 0x50, 0x6c,
  0x61, 0x6e, 0x74, 0x48, 0x65, 0x61, 0x6c, 0x74, 0x68, 0x43, 0x6c, 0x61,
  0x73, 0x73, 0x69, 0x66, 0x69, 0x65, 0x72, 0x5f, 0x31, 0x2f, 0x64, 0x65,
  0x6e, 0x73, 0x65, 0x5f, 0x32, 0x5f, 0x31, 0x2f, 0x42, 0x69, 0x61, 0x73,
  0x41, 0x64, 0x64, 0x00, 0x02, 0x00, 0x00, 0x00, 0x01, 0x00, 0x00, 0x00,
  0x10, 0x00, 0x00, 0x00, 0xea, 0xf6, 0xff, 0xff, 0x00, 0x00, 0x00, 0x01,
  0x18, 0x00, 0x00, 0x00, 0x20, 0x00, 0x00, 0x00, 0x3c, 0x00, 0x00, 0x00,
  0x0a, 0x00, 0x00, 0x00, 0x00, 0x00, 0x00, 0x09, 0xb0, 0x00, 0x00, 0x00,
  0x02, 0x00, 0x00, 0x00, 0xff, 0xff, 0xff, 0xff, 0x18, 0x00, 0x00, 0x00,
  0xd4, 0xf6, 0xff, 0xff, 0x08, 0x00, 0x00, 0x00, 0x10, 0x00, 0x00, 0x00,
  0x01, 0x00, 0x00, 0x00, 0x80, 0xff, 0xff, 0xff, 0xff, 0xff, 0xff, 0xff,
  0x01, 0x00, 0x00, 0x00, 0x44, 0x27, 0x55, 0x3c, 0x79, 0x00, 0x00, 0x00,
  0x50, 0x6c, 0x61, 0x6e, 0x74, 0x48, 0x65, 0x61, 0x6c, 0x74, 0x68, 0x43,
  0x6c, 0x61, 0x73, 0x73, 0x69, 0x66, 0x69, 0x65, 0x72, 0x5f, 0x31, 0x2f,
  0x64, 0x65, 0x6e, 0x73, 0x65, 0x5f, 0x31, 0x5f, 0x31, 0x2f, 0x4d, 0x61,
  0x74, 0x4d, 0x75, 0x6c, 0x3b, 0x50, 0x6c, 0x61, 0x6e, 0x74, 0x48, 0x65,
  0x61, 0x6c, 0x74, 0x68, 0x43, 0x6c, 0x61, 0x73, 0x73, 0x69, 0x66, 0x69,
  0x65, 0x72, 0x5f, 0x31, 0x2f, 0x64, 0x65, 0x6e, 0x73, 0x65, 0x5f, 0x31,
  0x5f, 0x31, 0x2f, 0x52, 0x65, 0x6c, 0x75, 0x3b, 0x50, 0x6c, 0x61, 0x6e,
  0x74, 0x48, 0x65, 0x61, 0x6c, 0x74, 0x68, 0x43, 0x6c, 0x61, 0x73, 0x73,
  0x69, 0x66, 0x69, 0x65, 0x72, 0x5f, 0x31, 0x2f, 0x64, 0x65, 0x6e, 0x73,
  0x65, 0x5f, 0x31, 0x5f, 0x31, 0x2f, 0x42, 0x69, 0x61, 0x73, 0x41, 0x64,
  0x64, 0x00, 0x00, 0x00, 0x02, 0x00, 0x00, 0x00, 0x01, 0x00, 0x00, 0x00,
  0x18, 0x00, 0x00, 0x00, 0x7e, 0xf8, 0xff, 0xff, 0x00, 0x00, 0x00, 0x01,
  0x14, 0x00, 0x00, 0x00, 0x48, 0x01, 0x00, 0x00, 0x09, 0x00, 0x00, 0x00,
  0x00, 0x00, 0x00, 0x09, 0x54, 0x01, 0x00, 0x00, 0x9c, 0xf7, 0xff, 0xff,
  0x08, 0x00, 0x00, 0x00, 0xcc, 0x00, 0x00, 0x00, 0x18, 0x00, 0x00, 0x00,
  0x00, 0x00, 0x00, 0x00, 0x00, 0x00, 0x00, 0x00, 0x00, 0x00, 0x00, 0x00,
  0x00, 0x00, 0x00, 0x00, 0x00, 0x00, 0x00, 0x00, 0x00, 0x00, 0x00, 0x00,
  0x00, 0x00, 0x00, 0x00, 0x00, 0x00, 0x00, 0x00, 0x00, 0x00, 0x00, 0x00,
  0x00, 0x00, 0x00, 0x00, 0x00, 0x00, 0x00, 0x00, 0x00, 0x00, 0x00, 0x00,
  0x00, 0x00, 0x00, 0x00, 0x00, 0x00, 0x00, 0x00, 0x00, 0x00, 0x00, 0x00,
  0x00, 0x00, 0x00, 0x00, 0x00, 0x00, 0x00, 0x00, 0x00, 0x00, 0x00, 0x00,
  0x00, 0x00, 0x00, 0x00, 0x00, 0x00, 0x00, 0x00, 0x00, 0x00, 0x00, 0x00,
  0x00, 0x00, 0x00, 0x00, 0x00, 0x00, 0x00, 0x00, 0x00, 0x00, 0x00, 0x00,
  0x00, 0x00, 0x00, 0x00, 0x00, 0x00, 0x00, 0x00, 0x00, 0x00, 0x00, 0x00,
  0x00, 0x00, 0x00, 0x00, 0x00, 0x00, 0x00, 0x00, 0x00, 0x00, 0x00, 0x00,
  0x00, 0x00, 0x00, 0x00, 0x00, 0x00, 0x00, 0x00, 0x00, 0x00, 0x00, 0x00,
  0x00, 0x00, 0x00, 0x00, 0x00, 0x00, 0x00, 0x00, 0x00, 0x00, 0x00, 0x00,
  0x00, 0x00, 0x00, 0x00, 0x00, 0x00, 0x00, 0x00, 0x00, 0x00, 0x00, 0x00,
  0x00, 0x00, 0x00, 0x00, 0x00, 0x00, 0x00, 0x00, 0x00, 0x00, 0x00, 0x00,
  0x00, 0x00, 0x00, 0x00, 0x00, 0x00, 0x00, 0x00, 0x00, 0x00, 0x00, 0x00,
  0x00, 0x00, 0x00, 0x00, 0x00, 0x00, 0x00, 0x00, 0x00, 0x00, 0x00, 0x00,
  0x00, 0x00, 0x00, 0x00, 0x18, 0x00, 0x00, 0x00, 0x12, 0x1e, 0x71, 0x3b,
  0x48, 0x33, 0x52, 0x3b, 0x84, 0xab, 0xd2, 0x3b, 0xe6, 0x7a, 0xb4, 0x3a,
  0x59, 0xf1, 0x87, 0x3b, 0x16, 0x32, 0x9c, 0x3b, 0x04, 0x32, 0x80, 0x3b,
  0x9a, 0xc2, 0x91, 0x3b, 0x47, 0x99, 0x84, 0x3b, 0xe9, 0x29, 0x65, 0x3b,
  0x04, 0xc2, 0xac, 0x3b, 0x38, 0xca, 0xf7, 0x3b, 0x0b, 0x91, 0xca, 0x3b,
  0x7b, 0x70, 0x62, 0x3b, 0x30, 0x5b, 0x3b, 0x3b, 0x00, 0x24, 0x80, 0x3b,
  0x7c, 0x3f, 0xae, 0x3b, 0x91, 0xbc, 0x47, 0x3b, 0xb3, 0xb9, 0x42, 0x3b,
  0x74, 0x50, 0xc0, 0x3b, 0xdd, 0xd9, 0x64, 0x3b, 0x81, 0xa0, 0x4e, 0x3b,
  0xff, 0x81, 0xcc, 0x3b, 0x65, 0x3b, 0x4f, 0x3b, 0x12, 0x00, 0x00, 0x00,
  0x74, 0x66, 0x6c, 0x2e, 0x70, 0x73, 0x65, 0x75, 0x64, 0x6f, 0x5f, 0x71,
  0x63, 0x6f, 0x6e, 0x73, 0x74, 0x37, 0x00, 0x00, 0x02, 0x00, 0x00, 0x00,
  0x18, 0x00, 0x00, 0x00, 0x06, 0x00, 0x00, 0x00, 0xf6, 0xf9, 0xff, 0xff,
  0x00, 0x00, 0x00, 0x01, 0x14, 0x00, 0x00, 0x00, 0x44, 0x01, 0x00, 0x00,
  0x08, 0x00, 0x00, 0x00, 0x00, 0x00, 0x00, 0x02, 0x50, 0x01, 0x00, 0x00,
  0x14, 0xf9, 0xff, 0xff, 0x08, 0x00, 0x00, 0x00, 0xc8, 0x00, 0x00, 0x00,
  0x18, 0x00, 0x00, 0x00, 0x00, 0x00, 0x00, 0x00, 0x00, 0x00, 0x00, 0x00,
  0x00, 0x00, 0x00, 0x00, 0x00, 0x00, 0x00, 0x00, 0x00, 0x00, 0x00, 0x00,
  0x00, 0x00, 0x00, 0x00, 0x00, 0x00, 0x00, 0x00, 0x00, 0x00, 0x00, 0x00,
  0x00, 0x00, 0x00, 0x00, 0x00, 0x00, 0x00, 0x00, 0x00, 0x00, 0x00, 0x00,
  0x00, 0x00, 0x00, 0x00, 0x00, 0x00, 0x00, 0x00, 0x00, 0x00, 0x00, 0x00,
  0x00, 0x00, 0x00, 0x00, 0x00, 0x00, 0x00, 0x00, 0x00, 0x00, 0x00, 0x00,
  0x00, 0x00, 0x00, 0x00, 0x00, 0x00, 0x00, 0x00, 0x00, 0x00, 0x00, 0x00,
  0x00, 0x00, 0x00, 0x00, 0x00, 0x00, 0x00, 0x00, 0x00, 0x00, 0x00, 0x00,
  0x00, 0x00, 0x00, 0x00, 0x00, 0x00, 0x00, 0x00, 0x00, 0x00, 0x00, 0x00,
  0x00, 0x00, 0x00, 0x00, 0x00, 0x00, 0x00, 0x00, 0x00, 0x00, 0x00, 0x00,
  0x00, 0x00, 0x00, 0x00, 0x00, 0x00, 0x00, 0x00, 0x00, 0x00, 0x00, 0x00,
  0x00, 0x00, 0x00, 0x00, 0x00, 0x00, 0x00, 0x00, 0x00, 0x00, 0x00, 0x00,
  0x00, 0x00, 0x00, 0x00, 0x00, 0x00, 0x00, 0x00, 0x00, 0x00, 0x00, 0x00,
  0x00, 0x00, 0x00, 0x00, 0x00, 0x00, 0x00, 0x00, 0x00, 0x00, 0x00, 0x00,
  0x00, 0x00, 0x00, 0x00, 0x00, 0x00, 0x00, 0x00, 0x00, 0x00, 0x00, 0x00,
  0x00, 0x00, 0x00, 0x00, 0x00, 0x00, 0x00, 0x00, 0x00, 0x00, 0x00, 0x00,
  0x00, 0x00, 0x00, 0x00, 0x18, 0x00, 0x00, 0x00, 0x36, 0x5d, 0xf5, 0x38,
  0x06, 0xe7, 0xd5, 0x38, 0x60, 0x61, 0x56, 0x39, 0xa4, 0xa8, 0x37, 0x38,
  0x48, 0x56, 0x0a, 0x39, 0x56, 0xf2, 0x1e, 0x39, 0x05, 0x74, 0x02, 0x39,
  0xcd, 0x53, 0x14, 0x39, 0x22, 0xef, 0x06, 0x39, 0x27, 0x33, 0xe9, 0x38,
  0xf0, 0xcc, 0x2f, 0x39, 0x72, 0x27, 0x7c, 0x39, 0x5e, 0x22, 0x4e, 0x39,
  0x71, 0x6d, 0xe6, 0x38, 0xee, 0xa7, 0xbe, 0x38, 0xc1, 0x65, 0x02, 0x39,
  0x20, 0x51, 0x31, 0x39, 0x21, 0x41, 0xcb, 0x38, 0xab, 0x27, 0xc6, 0x38,
  0x8d, 0xb3, 0x43, 0x39, 0xb3, 0xe1, 0xe8, 0x38, 0x23, 0x44, 0xd2, 0x38,
  0x13, 0x1c, 0x50, 0x39, 0xc1, 0xe1, 0xd2, 0x38, 0x12, 0x00, 0x00, 0x00,
  0x74, 0x66, 0x6c, 0x2e, 0x70, 0x73, 0x65, 0x75, 0x64, 0x6f, 0x5f, 0x71,
  0x63, 0x6f, 0x6e, 0x73, 0x74, 0x36, 0x00, 0x00, 0x01, 0x00, 0x00, 0x00,
  0x18, 0x00, 0x00, 0x00, 0x66, 0xfb, 0xff, 0xff, 0x00, 0x00, 0x00, 0x01,
  0x14, 0x00, 0x00, 0x00, 0xe8, 0x00, 0x00, 0x00, 0x07, 0x00, 0x00, 0x00,
  0x00, 0x00, 0x00, 0x09, 0xf4, 0x00, 0x00, 0x00, 0x84, 0xfa, 0xff, 0xff,
  0x08, 0x00, 0x00, 0x00, 0x8c, 0x00, 0x00, 0x00, 0x10, 0x00, 0x00, 0x00,
  0x00, 0x00, 0x00, 0x00, 0x00, 0x00, 0x00, 0x00, 0x00, 0x00, 0x00, 0x00,
  0x00, 0x00, 0x00, 0x00, 0x00, 0x00, 0x00, 0x00, 0x00, 0x00, 0x00, 0x00,
  0x00, 0x00, 0x00, 0x00, 0x00, 0x00, 0x00, 0x00, 0x00, 0x00, 0x00, 0x00,
  0x00, 0x00, 0x00, 0x00, 0x00, 0x00, 0x00, 0x00, 0x00, 0x00, 0x00, 0x00,
  0x00, 0x00, 0x00, 0x00, 0x00, 0x00, 0x00, 0x00, 0x00, 0x00, 0x00, 0x00,
  0x00, 0x00, 0x00, 0x00, 0x00, 0x00, 0x00, 0x00, 0x00, 0x00, 0x00, 0x00,
  0x00, 0x00, 0x00, 0x00, 0x00, 0x00, 0x00, 0x00, 0x00, 0x00, 0x00, 0x00,
  0x00, 0x00, 0x00, 0x00, 0x00, 0x00, 0x00, 0x00, 0x00, 0x00, 0x00, 0x00,
  0x00, 0x00, 0x00, 0x00, 0x00, 0x00, 0x00, 0x00, 0x00, 0x00, 0x00, 0x00,
  0x00, 0x00, 0x00, 0x00, 0x00, 0x00, 0x00, 0x00, 0x00, 0x00, 0x00, 0x00,
  0x00, 0x00, 0x00, 0x00, 0x00, 0x00, 0x00, 0x00, 0x00, 0x00, 0x00, 0x00,
  0x10, 0x00, 0x00, 0x00, 0x59, 0x08, 0xed, 0x3d, 0xab, 0xba, 0xe4, 0x3d,
  0x99, 0x5a, 0x80, 0x3d, 0x89, 0xd8, 0x83, 0x3d, 0x5a, 0x8f, 0x21, 0x3e,
  0x02, 0x28, 0x3d, 0x3d, 0x33, 0x28, 0xa4, 0x3d, 0x09, 0xa9, 0x99, 0x3d,
  0x24, 0x47, 0x92, 0x3d, 0x23, 0x1f, 0x90, 0x3d, 0xcd, 0x8e, 0xe5, 0x3d,
  0xad, 0xf9, 0x88, 0x3d, 0xa5, 0x62, 0x86, 0x3d, 0xa7, 0xcb, 0xf1, 0x3d,
  0x4e, 0x02, 0x10, 0x3e, 0xeb, 0x4c, 0xbb, 0x3d, 0x12, 0x00, 0x00, 0x00,
  0x74, 0x66, 0x6c, 0x2e, 0x70, 0x73, 0x65, 0x75, 0x64, 0x6f, 0x5f, 0x71,
  0x63, 0x6f, 0x6e, 0x73, 0x74, 0x35, 0x00, 0x00, 0x02, 0x00, 0x00, 0x00,
  0x10, 0x00, 0x00, 0x00, 0x18, 0x00, 0x00, 0x00, 0x7e, 0xfc, 0xff, 0xff,
  0x00, 0x00, 0x00, 0x01, 0x14, 0x00, 0x00, 0x00, 0xe4, 0x00, 0x00, 0x00,
  0x06, 0x00, 0x00, 0x00, 0x00, 0x00, 0x00, 0x02, 0xf0, 0x00, 0x00, 0x00,
  0x9c, 0xfb, 0xff, 0xff, 0x08, 0x00, 0x00, 0x00, 0x88, 0x00, 0x00, 0x00,
  0x10, 0x00, 0x00, 0x00, 0x00, 0x00, 0x00, 0x00, 0x00, 0x00, 0x00, 0x00,
  0x00, 0x00, 0x00, 0x00, 0x00, 0x00, 0x00, 0x00, 0x00, 0x00, 0x00, 0x00,
  0x00, 0x00, 0x00, 0x00, 0x00, 0x00, 0x00, 0x00, 0x00, 0x00, 0x00, 0x00,
  0x00, 0x00, 0x00, 0x00, 0x00, 0x00, 0x00, 0x00, 0x00, 0x00, 0x00, 0x00,
  0x00, 0x00, 0x00, 0x00, 0x00, 0x00, 0x00, 0x00, 0x00, 0x00, 0x00, 0x00,
  0x00, 0x00, 0x00, 0x00, 0x00, 0x00, 0x00, 0x00, 0x00, 0x00, 0x00, 0x00,
  0x00, 0x00, 0x00, 0x00, 0x00, 0x00, 0x00, 0x00, 0x00, 0x00, 0x00, 0x00,
  0x00, 0x00, 0x00, 0x00, 0x00, 0x00, 0x00, 0x00, 0x00, 0x00, 0x00, 0x00,
  0x00, 0x00, 0x00, 0x00, 0x00, 0x00, 0x00, 0x00, 0x00, 0x00, 0x00, 0x00,
  0x00, 0x00, 0x00, 0x00, 0x00, 0x00, 0x00, 0x00, 0x00, 0x00, 0x00, 0x00,
  0x00, 0x00, 0x00, 0x00, 0x00, 0x00, 0x00, 0x00, 0x00, 0x00, 0x00, 0x00,
  0x10, 0x00, 0x00, 0x00, 0x4d, 0x5c, 0xc5, 0x3a, 0x65, 0x72, 0xbe, 0x3a,
  0x22, 0xbe, 0x55, 0x3a, 0xc6, 0x8e, 0x5b, 0x3a, 0x0e, 0x85, 0x06, 0x3b,
  0x4d, 0x7f, 0x1d, 0x3a, 0xa0, 0xae, 0x88, 0x3a, 0x6c, 0xe2, 0x7f, 0x3a,
  0x41, 0x97, 0x73, 0x3a, 0x06, 0x00, 0x70, 0x3a, 0x06, 0x23, 0xbf, 0x3a,
  0x7f, 0x19, 0x64, 0x3a, 0x60, 0xc9, 0x5f, 0x3a, 0x88, 0x53, 0xc9, 0x3a,
  0x03, 0xd0, 0xef, 0x3a, 0xba, 0xf3, 0x9b, 0x3a, 0x12, 0x00, 0x00, 0x00,
  0x74, 0x66, 0x6c, 0x2e, 0x70, 0x73, 0x65, 0x75, 0x64, 0x6f, 0x5f, 0x71,
  0x63, 0x6f, 0x6e, 0x73, 0x74, 0x34, 0x00, 0x00, 0x01, 0x00, 0x00, 0x00,
  0x10, 0x00, 0x00, 0x00, 0x8e, 0xfd, 0xff, 0xff, 0x00, 0x00, 0x00, 0x01,
  0x14, 0x00, 0x00, 0x00, 0xb8, 0x00, 0x00, 0x00, 0x05, 0x00, 0x00, 0x00,
  0x00, 0x00, 0x00, 0x09, 0xc4, 0x00, 0x00, 0x00, 0xac, 0xfc, 0xff, 0xff,
  0x08, 0x00, 0x00, 0x00, 0x6c, 0x00, 0x00, 0x00, 0x0c, 0x00, 0x00, 0x00,
  0x00, 0x00, 0x00, 0x00, 0x00, 0x00, 0x00, 0x00, 0x00, 0x00, 0x00, 0x00,
  0x00, 0x00, 0x00, 0x00, 0x00, 0x00, 0x00, 0x00, 0x00, 0x00, 0x00, 0x00,
  0x00, 0x00, 0x00, 0x00, 0x00, 0x00, 0x00, 0x00, 0x00, 0x00, 0x00, 0x00,
  0x00, 0x00, 0x00, 0x00, 0x00, 0x00, 0x00, 0x00, 0x00, 0x00, 0x00, 0x00,
  0x00, 0x00, 0x00, 0x00, 0x00, 0x00, 0x00, 0x00, 0x00, 0x00, 0x00, 0x00,
  0x00, 0x00, 0x00, 0x00, 0x00, 0x00, 0x00, 0x00, 0x00, 0x00, 0x00, 0x00,
  0x00, 0x00, 0x00, 0x00, 0x00, 0x00, 0x00, 0x00, 0x00, 0x00, 0x00, 0x00,
  0x00, 0x00, 0x00, 0x00, 0x00, 0x00, 0x00, 0x00, 0x00, 0x00, 0x00, 0x00,
  0x00, 0x00, 0x00, 0x00, 0x0c, 0x00, 0x00, 0x00, 0xca, 0x63, 0x16, 0x3c,
  0xf3, 0xd9, 0x8c, 0x3c, 0x7a, 0x66, 0x3f, 0x3c, 0x1f, 0x78, 0x3d, 0x3c,
  0xdd, 0x99, 0x03, 0x3c, 0xd9, 0x4b, 0xce, 0x3c, 0x6a, 0x02, 0x70, 0x3c,
  0x71, 0xea, 0x68, 0x3c, 0xf4, 0xb2, 0x6c, 0x3c, 0xca, 0x7a, 0x58, 0x3c,
  0xa8, 0xf7, 0xa5, 0x3c, 0x33, 0xc0, 0x55, 0x3c, 0x12, 0x00, 0x00, 0x00,
  0x74, 0x66, 0x6c, 0x2e, 0x70, 0x73, 0x65, 0x75, 0x64, 0x6f, 0x5f, 0x71,
  0x63, 0x6f, 0x6e, 0x73, 0x74, 0x33, 0x00, 0x00, 0x02, 0x00, 0x00, 0x00,
  0x0c, 0x00, 0x00, 0x00, 0x10, 0x00, 0x00, 0x00, 0x76, 0xfe, 0xff, 0xff,
  0x00, 0x00, 0x00, 0x01, 0x14, 0x00, 0x00, 0x00, 0xb4, 0x00, 0x00, 0x00,
  0x04, 0x00, 0x00, 0x00, 0x00, 0x00, 0x00, 0x02, 0xc0, 0x00, 0x00, 0x00,
  0x94, 0xfd, 0xff, 0xff, 0x08, 0x00, 0x00, 0x00, 0x68, 0x00, 0x00, 0x00,
  0x0c, 0x00, 0x00, 0x00, 0x00, 0x00, 0x00, 0x00, 0x00, 0x00, 0x00, 0x00,
  0x00, 0x00, 0x00, 0x00, 0x00, 0x00, 0x00, 0x00, 0x00, 0x00, 0x00, 0x00,
  0x00, 0x00, 0x00, 0x00, 0x00, 0x00, 0x00, 0x00, 0x00, 0x00, 0x00, 0x00,
  0x00, 0x00, 0x00, 0x00, 0x00, 0x00, 0x00, 0x00, 0x00, 0x00, 0x00, 0x00,
  0x00, 0x00, 0x00, 0x00, 0x00, 0x00, 0x00, 0x00, 0x00, 0x00, 0x00, 0x00,
  0x00, 0x00, 0x00, 0x00, 0x00, 0x00, 0x00, 0x00, 0x00, 0x00, 0x00, 0x00,
  0x00, 0x00, 0x00, 0x00, 0x00, 0x00, 0x00, 0x00, 0x00, 0x00, 0x00, 0x00,
  0x00, 0x00, 0x00, 0x00, 0x00, 0x00, 0x00, 0x00, 0x00, 0x00, 0x00, 0x00,
  0x00, 0x00, 0x00, 0x00, 0x0c, 0x00, 0x00, 0x00, 0x4c, 0x20, 0xd7, 0x39,
  0x5a, 0x7b, 0x49, 0x3a, 0x1c, 0xe5, 0x08, 0x3a, 0x88, 0x83, 0x07, 0x3a,
  0xe8, 0x3f, 0xbc, 0x39, 0x8b, 0x8c, 0x93, 0x3a, 0x5f, 0xa9, 0x2b, 0x3a,
  0x89, 0x96, 0x26, 0x3a, 0x3e, 0x4b, 0x29, 0x3a, 0x1a, 0xd5, 0x1a, 0x3a,
  0xc5, 0x68, 0x6d, 0x3a, 0x73, 0xe1, 0x18, 0x3a, 0x12, 0x00, 0x00, 0x00,
  0x74, 0x66, 0x6c, 0x2e, 0x70, 0x73, 0x65, 0x75, 0x64, 0x6f, 0x5f, 0x71,
  0x63, 0x6f, 0x6e, 0x73, 0x74, 0x32, 0x00, 0x00, 0x01, 0x00, 0x00, 0x00,
  0x0c, 0x00, 0x00, 0x00, 0x56, 0xff, 0xff, 0xff, 0x00, 0x00, 0x00, 0x01,
  0x14, 0x00, 0x00, 0x00, 0x78, 0x00, 0x00, 0x00, 0x03, 0x00, 0x00, 0x00,
  0x00, 0x00, 0x00, 0x09, 0x84, 0x00, 0x00, 0x00, 0x74, 0xfe, 0xff, 0xff,
  0x08, 0x00, 0x00, 0x00, 0x40, 0x00, 0x00, 0x00, 0x07, 0x00, 0x00, 0x00,
  0x00, 0x00, 0x00, 0x00, 0x00, 0x00, 0x00, 0x00, 0x00, 0x00, 0x00, 0x00,
  0x00, 0x00, 0x00, 0x00, 0x00, 0x00, 0x00, 0x00, 0x00, 0x00, 0x00, 0x00,
  0x00, 0x00, 0x00, 0x00, 0x00, 0x00, 0x00, 0x00, 0x00, 0x00, 0x00, 0x00,
  0x00, 0x00, 0x00, 0x00, 0x00, 0x00, 0x00, 0x00, 0x00, 0x00, 0x00, 0x00,
  0x00, 0x00, 0x00, 0x00, 0x00, 0x00, 0x00, 0x00, 0x07, 0x00, 0x00, 0x00,
  0x5b, 0x4f, 0x97, 0x3b, 0x7e, 0xb4, 0xdb, 0x3b, 0x92, 0x15, 0x19, 0x3c,
  0xf1, 0x53, 0x18, 0x3c, 0x24, 0x91, 0xfe, 0x3b, 0x74, 0x7e, 0xa1, 0x3b,
  0x45, 0x94, 0xc5, 0x3b, 0x12, 0x00, 0x00, 0x00, 0x74, 0x66, 0x6c, 0x2e,
  0x70, 0x73, 0x65, 0x75, 0x64, 0x6f, 0x5f, 0x71, 0x63, 0x6f, 0x6e, 0x73,
  0x74, 0x31, 0x00, 0x00, 0x02, 0x00, 0x00, 0x00, 0x07, 0x00, 0x00, 0x00,
  0x0c, 0x00, 0x00, 0x00, 0x00, 0x00, 0x16, 0x00, 0x1c, 0x00, 0x18, 0x00,
  0x17, 0x00, 0x10, 0x00, 0x0c, 0x00, 0x08, 0x00, 0x00, 0x00, 0x00, 0x00,
  0x00, 0x00, 0x07, 0x00, 0x16, 0x00, 0x00, 0x00, 0x00, 0x00, 0x00, 0x01,
  0x14, 0x00, 0x00, 0x00, 0x78, 0x00, 0x00, 0x00, 0x02, 0x00, 0x00, 0x00,
  0x00, 0x00, 0x00, 0x02, 0x84, 0x00, 0x00, 0x00, 0x34, 0xff, 0xff, 0xff,
  0x08, 0x00, 0x00, 0x00, 0x40, 0x00, 0x00, 0x00, 0x07, 0x00, 0x00, 0x00,
  0x00, 0x00, 0x00, 0x00, 0x00, 0x00, 0x00, 0x00, 0x00, 0x00, 0x00, 0x00,
  0x00, 0x00, 0x00, 0x00, 0x00, 0x00, 0x00, 0x00, 0x00, 0x00, 0x00, 0x00,
  0x00, 0x00, 0x00, 0x00, 0x00, 0x00, 0x00, 0x00, 0x00, 0x00, 0x00, 0x00,
  0x00, 0x00, 0x00, 0x00, 0x00, 0x00, 0x00, 0x00, 0x00, 0x00, 0x00, 0x00,
  0x00, 0x00, 0x00, 0x00, 0x00, 0x00, 0x00, 0x00, 0x07, 0x00, 0x00, 0x00,
  0x22, 0x66, 0x82, 0x39, 0x82, 0x57, 0xbd, 0x39, 0x93, 0xed, 0x03, 0x3a,
  0xb5, 0x46, 0x03, 0x3a, 0xc5, 0x62, 0xdb, 0x39, 0xee, 0x2c, 0x8b, 0x39,
  0x14, 0x46, 0xaa, 0x39, 0x11, 0x00, 0x00, 0x00, 0x74, 0x66, 0x6c, 0x2e,
  0x70, 0x73, 0x65, 0x75, 0x64, 0x6f, 0x5f, 0x71, 0x63, 0x6f, 0x6e, 0x73,
  0x74, 0x00, 0x00, 0x00, 0x01, 0x00, 0x00, 0x00, 0x07, 0x00, 0x00, 0x00,
  0x00, 0x00, 0x16, 0x00, 0x20, 0x00, 0x1c, 0x00, 0x1b, 0x00, 0x14, 0x00,
  0x10, 0x00, 0x0c, 0x00, 0x00, 0x00, 0x00, 0x00, 0x08, 0x00, 0x07, 0x00,
  0x16, 0x00, 0x00, 0x00, 0x00, 0x00, 0x00, 0x01, 0x18, 0x00, 0x00, 0x00,
  0x2c, 0x00, 0x00, 0x00, 0x48, 0x00, 0x00, 0x00, 0x01, 0x00, 0x00, 0x00,
  0x00, 0x00, 0x00, 0x09, 0x58, 0x00, 0x00, 0x00, 0x02, 0x00, 0x00, 0x00,
  0xff, 0xff, 0xff, 0xff, 0x06, 0x00, 0x00, 0x00, 0x0c, 0x00, 0x0c, 0x00,
  0x00, 0x00, 0x00, 0x00, 0x08, 0x00, 0x04, 0x00, 0x0c, 0x00, 0x00, 0x00,
  0x08, 0x00, 0x00, 0x00, 0x10, 0x00, 0x00, 0x00, 0x01, 0x00, 0x00, 0x00,
  0xf5, 0xff, 0xff, 0xff, 0xff, 0xff, 0xff, 0xff, 0x01, 0x00, 0x00, 0x00,
  0x1f, 0x41, 0x02, 0x3d, 0x17, 0x00, 0x00, 0x00, 0x73, 0x65, 0x72, 0x76,
  0x69, 0x6e, 0x67, 0x5f, 0x64, 0x65, 0x66, 0x61, 0x75, 0x6c, 0x74, 0x5f,
  0x69, 0x6e, 0x70, 0x75, 0x74, 0x3a, 0x30, 0x00, 0x02, 0x00, 0x00, 0x00,
  0x01, 0x00, 0x00, 0x00, 0x06, 0x00, 0x00, 0x00, 0x02, 0x00, 0x00, 0x00,
  0x24, 0x00, 0x00, 0x00, 0x04, 0x00, 0x00, 0x00, 0xf0, 0xff, 0xff, 0xff,
  0x19, 0x00, 0x00, 0x00, 0x02, 0x00, 0x00, 0x00, 0x00, 0x00, 0x00, 0x19,
  0x0c, 0x00, 0x10, 0x00, 0x0f, 0x00, 0x00, 0x00, 0x08, 0x00, 0x04, 0x00,
  0x0c, 0x00, 0x00, 0x00, 0x09, 0x00, 0x00, 0x00, 0x04, 0x00, 0x00, 0x00,
  0x00, 0x00, 0x00, 0x09
};
const unsigned int MODEL_DATA_len = 5656;


#endif // PLANT_HEALTH_MODEL_H
